#ifdef __has_attribute
#define HAVE_ATTRIBUTE(x) __has_attribute(x)
#else
#define HAVE_ATTRIBUTE(x) 0
#endif
#if HAVE_ATTRIBUTE(aligned) || (defined(__GNUC__) && !defined(__clang__))
#define DATA_ALIGN_ATTRIBUTE __attribute__((aligned(4)))
#else
#define DATA_ALIGN_ATTRIBUTE
#endif

const unsigned char model_data[] DATA_ALIGN_ATTRIBUTE = {
	0x1c, 0x00, 0x00, 0x00, 0x54, 0x46, 0x4c, 0x33, 0x14, 0x00, 0x20, 0x00, 
	0x1c, 0x00, 0x18, 0x00, 0x14, 0x00, 0x10, 0x00, 0x0c, 0x00, 0x00, 0x00, 
	0x08, 0x00, 0x04, 0x00, 0x14, 0x00, 0x00, 0x00, 0x1c, 0x00, 0x00, 0x00, 
	0x80, 0x00, 0x00, 0x00, 0xd8, 0x00, 0x00, 0x00, 0x44, 0x0b, 0x00, 0x00, 
	0x54, 0x0b, 0x00, 0x00, 0xc0, 0x11, 0x00, 0x00, 0x03, 0x00, 0x00, 0x00, 
	0x01, 0x00, 0x00, 0x00, 0x04, 0x00, 0x00, 0x00, 0xfe, 0xf3, 0xff, 0xff, 
	0x0c, 0x00, 0x00, 0x00, 0x1c, 0x00, 0x00, 0x00, 0x38, 0x00, 0x00, 0x00, 
	0x0f, 0x00, 0x00, 0x00, 0x73, 0x65, 0x72, 0x76, 0x69, 0x6e, 0x67, 0x5f, 
	0x64, 0x65, 0x66, 0x61, 0x75, 0x6c, 0x74, 0x00, 0x01, 0x00, 0x00, 0x00, 
	0x04, 0x00, 0x00, 0x00, 0x9c, 0xff, 0xff, 0xff, 0x0a, 0x00, 0x00, 0x00, 
	0x04, 0x00, 0x00, 0x00, 0x05, 0x00, 0x00, 0x00, 0x64, 0x65, 0x6e, 0x73, 
	0x65, 0x00, 0x00, 0x00, 0x01, 0x00, 0x00, 0x00, 0x04, 0x00, 0x00, 0x00, 
	0x9e, 0xf4, 0xff, 0xff, 0x04, 0x00, 0x00, 0x00, 0x07, 0x00, 0x00, 0x00, 
	0x69, 0x6e, 0x70, 0x75, 0x74, 0x5f, 0x31, 0x00, 0x02, 0x00, 0x00, 0x00, 
	0x34, 0x00, 0x00, 0x00, 0x04, 0x00, 0x00, 0x00, 0xdc, 0xff, 0xff, 0xff, 
	0x0d, 0x00, 0x00, 0x00, 0x04, 0x00, 0x00, 0x00, 0x13, 0x00, 0x00, 0x00, 
	0x43, 0x4f, 0x4e, 0x56, 0x45, 0x52, 0x53, 0x49, 0x4f, 0x4e, 0x5f, 0x4d, 
	0x45, 0x54, 0x41, 0x44, 0x41, 0x54, 0x41, 0x00, 0x08, 0x00, 0x0c, 0x00, 
	0x08, 0x00, 0x04, 0x00, 0x08, 0x00, 0x00, 0x00, 0x0c, 0x00, 0x00, 0x00, 
	0x04, 0x00, 0x00, 0x00, 0x13, 0x00, 0x00, 0x00, 0x6d, 0x69, 0x6e, 0x5f, 
	0x72, 0x75, 0x6e, 0x74, 0x69, 0x6d, 0x65, 0x5f, 0x76, 0x65, 0x72, 0x73, 
	0x69, 0x6f, 0x6e, 0x00, 0x0e, 0x00, 0x00, 0x00, 0x68, 0x0a, 0x00, 0x00, 
	0x60, 0x0a, 0x00, 0x00, 0x10, 0x0a, 0x00, 0x00, 0x80, 0x08, 0x00, 0x00, 
	0x5c, 0x08, 0x00, 0x00, 0x44, 0x08, 0x00, 0x00, 0xb4, 0x00, 0x00, 0x00, 
	0xac, 0x00, 0x00, 0x00, 0xa4, 0x00, 0x00, 0x00, 0x9c, 0x00, 0x00, 0x00, 
	0x94, 0x00, 0x00, 0x00, 0x8c, 0x00, 0x00, 0x00, 0x6c, 0x00, 0x00, 0x00, 
	0x04, 0x00, 0x00, 0x00, 0x4a, 0xf5, 0xff, 0xff, 0x04, 0x00, 0x00, 0x00, 
	0x58, 0x00, 0x00, 0x00, 0x0c, 0x00, 0x00, 0x00, 0x08, 0x00, 0x0e, 0x00, 
	0x08, 0x00, 0x04, 0x00, 0x08, 0x00, 0x00, 0x00, 0x10, 0x00, 0x00, 0x00, 
	0x28, 0x00, 0x00, 0x00, 0x00, 0x00, 0x06, 0x00, 0x08, 0x00, 0x04, 0x00, 
	0x06, 0x00, 0x00, 0x00, 0x04, 0x00, 0x00, 0x00, 0x01, 0x00, 0x00, 0x00, 
	0xea, 0x03, 0x00, 0x00, 0x00, 0x00, 0x0a, 0x00, 0x10, 0x00, 0x0c, 0x00, 
	0x08, 0x00, 0x04, 0x00, 0x0a, 0x00, 0x00, 0x00, 0x02, 0x00, 0x00, 0x00, 
	0x02, 0x00, 0x00, 0x00, 0x04, 0x00, 0x00, 0x00, 0x06, 0x00, 0x00, 0x00, 
	0x32, 0x2e, 0x31, 0x34, 0x2e, 0x30, 0x00, 0x00, 0xae, 0xf5, 0xff, 0xff, 
	0x04, 0x00, 0x00, 0x00, 0x10, 0x00, 0x00, 0x00, 0x31, 0x2e, 0x35, 0x2e, 
	0x30, 0x00, 0x00, 0x00, 0x00, 0x00, 0x00, 0x00, 0x00, 0x00, 0x00, 0x00, 
	0x04, 0xf0, 0xff, 0xff, 0x08, 0xf0, 0xff, 0xff, 0x0c, 0xf0, 0xff, 0xff, 
	0x10, 0xf0, 0xff, 0xff, 0x14, 0xf0, 0xff, 0xff, 0xde, 0xf5, 0xff, 0xff, 
	0x04, 0x00, 0x00, 0x00, 0x80, 0x07, 0x00, 0x00, 0xa9, 0x6c, 0xe2, 0x3c, 
	0x24, 0xa0, 0x15, 0xbd, 0xaf, 0xc8, 0x3d, 0x3e, 0x44, 0x35, 0x14, 0xbe, 
	0x1e, 0x83, 0x00, 0x3e, 0xec, 0x31, 0x1d, 0x3e, 0x74, 0xbf, 0x5c, 0x3e, 
	0x74, 0x16, 0x8d, 0x3e, 0x07, 0xa6, 0x33, 0xbe, 0x61, 0xd2, 0x38, 0xbc, 
	0x52, 0xcf, 0x03, 0xbe, 0xa2, 0x82, 0xaa, 0x3e, 0x42, 0x7c, 0x07, 0x3d, 
	0x1a, 0xb6, 0x9c, 0x3d, 0x5d, 0xe8, 0x20, 0x3e, 0x55, 0xab, 0xa2, 0xbe, 
	0xa0, 0x2f, 0x97, 0x3e, 0x4c, 0xc8, 0xbc, 0x3d, 0xbd, 0xe4, 0x4b, 0x3c, 
	0x81, 0xf0, 0x21, 0xbe, 0xa5, 0x3d, 0xf1, 0xbc, 0xff, 0x01, 0x1a, 0xbc, 
	0xab, 0xa2, 0xe8, 0xbd, 0xb4, 0x1b, 0x20, 0x3e, 0x49, 0xf6, 0x79, 0x3d, 
	0x8a, 0x75, 0x12, 0xbe, 0xdf, 0x6a, 0x55, 0x3e, 0xa0, 0xdf, 0x87, 0x3e, 
	0x7c, 0xe2, 0xa8, 0x3e, 0x7f, 0x54, 0xaa, 0xbd, 0xeb, 0x42, 0xe2, 0x3d, 
	0x5f, 0x8e, 0x30, 0xbe, 0xf1, 0x61, 0x44, 0x3e, 0xd1, 0x1a, 0x33, 0xbd, 
	0x36, 0x5b, 0x69, 0x3c, 0x61, 0xed, 0x61, 0xbb, 0x6c, 0x3a, 0xa0, 0x3d, 
	0x5a, 0xf5, 0x2c, 0xbe, 0x1a, 0x45, 0x2b, 0x3e, 0x1a, 0xe6, 0x9e, 0x3e, 
	0x17, 0x5e, 0xe7, 0x3d, 0x7a, 0x04, 0x40, 0xbe, 0x9a, 0x56, 0xb4, 0xbd, 
	0x72, 0x1f, 0x10, 0x3f, 0x13, 0xf3, 0xb7, 0x3b, 0x29, 0x77, 0xbb, 0xbd, 
	0x0b, 0x61, 0x07, 0x3e, 0xe1, 0x82, 0x46, 0xbe, 0x35, 0x3a, 0xe5, 0x3d, 
	0xec, 0x3a, 0xfb, 0x3c, 0x5e, 0xe8, 0x3c, 0x3e, 0xa4, 0xb2, 0x27, 0xbd, 
	0x3e, 0x45, 0x28, 0xbd, 0xd2, 0xb5, 0x50, 0xbc, 0x15, 0xc7, 0x9f, 0x3d, 
	0x94, 0x47, 0x98, 0xbd, 0xb1, 0x5e, 0x89, 0xbc, 0x01, 0xf4, 0xfa, 0xbc, 
	0xd2, 0xe6, 0xa9, 0xbd, 0xca, 0x2f, 0xfc, 0x3e, 0x56, 0x04, 0x93, 0x3e, 
	0x1c, 0x8e, 0x9b, 0x3d, 0xe9, 0x53, 0x0c, 0xbd, 0x5f, 0xe3, 0x75, 0xbe, 
	0x27, 0xb9, 0xda, 0x3d, 0xb4, 0x05, 0xd3, 0xbd, 0x50, 0xba, 0xb4, 0x3d, 
	0xf4, 0xf4, 0xdb, 0xbd, 0xaf, 0x41, 0x61, 0x3e, 0xd1, 0xe3, 0x9b, 0xbd, 
	0x99, 0xa3, 0xb1, 0x3d, 0xf4, 0x12, 0x51, 0x3e, 0x56, 0x9d, 0x88, 0x3d, 
	0x74, 0xed, 0x6d, 0x3e, 0x22, 0x86, 0xbe, 0x3b, 0x0d, 0x70, 0x00, 0x3f, 
	0xb4, 0x34, 0xae, 0x3d, 0x37, 0xf8, 0xa9, 0xbd, 0x8b, 0xc3, 0x04, 0x3e, 
	0x2d, 0xf3, 0xaa, 0xbe, 0x32, 0x30, 0x68, 0x3e, 0xf4, 0xf8, 0xa7, 0xbd, 
	0x19, 0xcd, 0x62, 0xbc, 0x9f, 0xe9, 0x9e, 0x3e, 0xb6, 0xc1, 0x9d, 0x3e, 
	0x78, 0xee, 0xc2, 0x3d, 0x1f, 0x72, 0x63, 0x3d, 0x40, 0xa3, 0xc4, 0x3d, 
	0xae, 0x69, 0xb2, 0xbd, 0x8a, 0xd6, 0x22, 0xbd, 0xef, 0x0e, 0x3e, 0xbe, 
	0x17, 0x1f, 0xc7, 0x3e, 0x34, 0xc3, 0x7e, 0xbd, 0x3b, 0xe8, 0x3d, 0xbe, 
	0xc8, 0x62, 0xc7, 0x3d, 0xb5, 0x57, 0x89, 0xbe, 0x84, 0x03, 0x73, 0xbd, 
	0x90, 0x20, 0x53, 0xbd, 0x80, 0x4a, 0x09, 0xbe, 0xe6, 0xd2, 0x06, 0x3e, 
	0xb8, 0x94, 0xf4, 0x3d, 0xc5, 0x1a, 0xf3, 0x3c, 0xcb, 0x12, 0x39, 0x3e, 
	0x7f, 0xe0, 0x72, 0xbe, 0x71, 0x93, 0xab, 0xbd, 0xf1, 0x4e, 0x45, 0x3d, 
	0x0c, 0xfa, 0xd1, 0x3d, 0x2d, 0x2d, 0x9b, 0x3c, 0x6d, 0xf0, 0x39, 0xbb, 
	0xb9, 0x7a, 0x58, 0xbe, 0xe9, 0xaa, 0xab, 0x3c, 0xaf, 0x38, 0x24, 0x3c, 
	0x28, 0x13, 0x28, 0xbe, 0xae, 0x3d, 0x77, 0x3e, 0x4e, 0xa3, 0x08, 0xbe, 
	0x8b, 0xf4, 0x69, 0xbe, 0x9d, 0x5b, 0x2e, 0xbe, 0xe1, 0x09, 0x15, 0x3d, 
	0x6a, 0x95, 0x90, 0xbc, 0x1d, 0xc7, 0x06, 0xbd, 0xf2, 0x12, 0xaf, 0x3d, 
	0x57, 0xab, 0x39, 0xbd, 0x0f, 0xf2, 0x17, 0xbe, 0x99, 0x97, 0x1a, 0x38, 
	0x18, 0x4a, 0x54, 0x3d, 0x52, 0xa0, 0xb6, 0xbd, 0x31, 0x76, 0x84, 0xbe, 
	0xd8, 0x2c, 0x1a, 0x3e, 0x0f, 0x9e, 0x15, 0xbe, 0x5a, 0x49, 0x37, 0xbe, 
	0x99, 0x49, 0x3f, 0xbd, 0x13, 0x1a, 0xa3, 0xbd, 0x26, 0xc5, 0x44, 0xbe, 
	0x6d, 0x70, 0xc1, 0xbc, 0xf5, 0x02, 0x55, 0x3e, 0x9d, 0x11, 0x20, 0x3e, 
	0x01, 0x6d, 0x84, 0xbd, 0x25, 0x3c, 0x07, 0x3e, 0xac, 0x8e, 0x0c, 0x3d, 
	0x36, 0xcd, 0x56, 0x3d, 0x8f, 0x28, 0xdc, 0x3d, 0xf1, 0x9f, 0xbd, 0x3d, 
	0x93, 0xbf, 0x80, 0x3d, 0xc7, 0x09, 0xe0, 0xbd, 0x70, 0x72, 0xb8, 0x3d, 
	0x32, 0x32, 0x89, 0xbd, 0x69, 0xea, 0x2e, 0xbe, 0x60, 0x0c, 0x20, 0x3e, 
	0x01, 0x5b, 0x39, 0xbd, 0x48, 0xfa, 0x04, 0xbd, 0x9c, 0xb0, 0xb5, 0xbd, 
	0x77, 0xb2, 0x0d, 0xbe, 0x32, 0x89, 0x36, 0x3e, 0x4a, 0x99, 0x24, 0x3e, 
	0x13, 0xbc, 0x63, 0x3e, 0x3f, 0xc3, 0xff, 0xbd, 0x57, 0x52, 0x4e, 0x3e, 
	0x2c, 0x1c, 0x0f, 0x3d, 0xea, 0x7b, 0xd2, 0x3d, 0xf5, 0xb0, 0xe5, 0xbb, 
	0x13, 0xc7, 0x6d, 0xbd, 0x7f, 0x20, 0x64, 0xbc, 0xff, 0x41, 0xa1, 0xbc, 
	0x44, 0xe2, 0xf9, 0xbd, 0x5c, 0x5a, 0x6d, 0x3d, 0x36, 0x67, 0x4e, 0x3e, 
	0x07, 0x2c, 0x5f, 0x3d, 0xb5, 0x4b, 0x94, 0xbd, 0xc5, 0xea, 0x89, 0x3b, 
	0xdc, 0x32, 0x6f, 0x3e, 0x99, 0x1e, 0xb7, 0x3c, 0x72, 0xe1, 0x2f, 0xbe, 
	0x0c, 0x6c, 0x37, 0xbc, 0x23, 0x72, 0x56, 0xbd, 0x26, 0x1d, 0xbe, 0x3c, 
	0x08, 0xee, 0xad, 0x3d, 0x6b, 0xb2, 0x30, 0x3e, 0xba, 0x4e, 0x83, 0xbd, 
	0x7c, 0x6d, 0x3a, 0xbe, 0x4d, 0x63, 0xa2, 0xbe, 0x5d, 0xe0, 0xa0, 0x3d, 
	0x89, 0x49, 0x49, 0xbd, 0xe1, 0x58, 0xb4, 0x3d, 0x0a, 0x9e, 0x27, 0xbe, 
	0x2f, 0xb1, 0xeb, 0x3d, 0xe6, 0x96, 0x79, 0x3c, 0x3a, 0x77, 0xc5, 0x3d, 
	0x97, 0x69, 0xeb, 0x39, 0x0c, 0x40, 0x36, 0xbd, 0xe8, 0x3b, 0x10, 0x3b, 
	0xa3, 0x0b, 0x63, 0xbd, 0xaa, 0x1f, 0x0c, 0x3e, 0x43, 0x47, 0x15, 0x3e, 
	0x34, 0xf9, 0xdb, 0x3d, 0x6b, 0xbe, 0x5b, 0xbd, 0xbe, 0xd5, 0x07, 0x3e, 
	0x36, 0x8c, 0x46, 0x3e, 0x3b, 0x64, 0xb7, 0x3d, 0x36, 0xac, 0xa2, 0x3d, 
	0x24, 0x46, 0x97, 0x3d, 0xc6, 0x51, 0x1d, 0xbe, 0x38, 0xb3, 0x24, 0xbe, 
	0xbc, 0x01, 0x93, 0x3a, 0x85, 0x33, 0x4c, 0xbe, 0x02, 0xd0, 0x51, 0x3d, 
	0x1a, 0xc3, 0x04, 0xbd, 0xd8, 0xed, 0xff, 0xbd, 0x4f, 0xc1, 0x63, 0xbd, 
	0xee, 0xad, 0x75, 0xbe, 0x5d, 0x32, 0xcd, 0x3d, 0x66, 0x77, 0x9c, 0xbc, 
	0xb1, 0x48, 0x4b, 0xbe, 0x59, 0x7f, 0xd0, 0xbd, 0x9c, 0xe1, 0x2f, 0x3b, 
	0x2c, 0x48, 0x75, 0xbd, 0x55, 0x3a, 0xab, 0xbd, 0xad, 0xed, 0x21, 0x3d, 
	0x63, 0xd9, 0x0a, 0x3e, 0xc5, 0x54, 0xc1, 0x3d, 0xcb, 0x2d, 0xc0, 0xbb, 
	0xd5, 0xc4, 0x4d, 0x3d, 0x40, 0xe9, 0xdb, 0x3c, 0x4e, 0xca, 0x86, 0x3e, 
	0x94, 0xb0, 0x13, 0xbd, 0x1f, 0x82, 0xbc, 0x3d, 0xe9, 0x25, 0x28, 0xbe, 
	0x99, 0xf4, 0xf8, 0x3d, 0x47, 0x77, 0x95, 0xbe, 0xd3, 0x12, 0xbc, 0xbd, 
	0x25, 0xb9, 0xeb, 0x3d, 0x5c, 0x22, 0x65, 0x3d, 0x93, 0xc4, 0x61, 0x3e, 
	0x4e, 0x2a, 0xb9, 0x3c, 0xf3, 0xf7, 0xbc, 0x3d, 0x85, 0x59, 0x03, 0xbd, 
	0x54, 0x2d, 0x85, 0xbc, 0x82, 0x6a, 0x2d, 0x3e, 0x7f, 0x07, 0xef, 0x3c, 
	0xc0, 0xff, 0x52, 0x3e, 0x72, 0x7d, 0x2e, 0xbe, 0x24, 0x45, 0x2c, 0x3e, 
	0x44, 0xd2, 0xf6, 0x3d, 0xa8, 0x96, 0xab, 0xbc, 0xd0, 0x3e, 0xd2, 0x3d, 
	0x57, 0x06, 0xa3, 0x3d, 0x3e, 0xfc, 0xb0, 0xbb, 0x70, 0x2f, 0x98, 0x3d, 
	0xa8, 0xa7, 0xbe, 0x3d, 0x1c, 0x19, 0x12, 0x3e, 0x0c, 0x28, 0x1c, 0xbe, 
	0x00, 0x3e, 0x06, 0x3e, 0xb4, 0x5e, 0x2d, 0xbc, 0xd8, 0xdc, 0xbe, 0x3a, 
	0x42, 0x63, 0x26, 0x3e, 0x7a, 0x3f, 0xb7, 0x3d, 0x40, 0xc1, 0x55, 0xbe, 
	0xee, 0x88, 0x37, 0xbe, 0x47, 0xd7, 0x88, 0x3d, 0x58, 0x1d, 0x33, 0x3d, 
	0x7f, 0xe1, 0xfa, 0xbd, 0xe5, 0x40, 0x12, 0x3e, 0xb3, 0xab, 0xd5, 0x3c, 
	0x07, 0xae, 0x0e, 0x3e, 0xee, 0x93, 0xaf, 0xbd, 0xd7, 0x26, 0x8e, 0x3d, 
	0x29, 0xc8, 0x1e, 0x3e, 0x96, 0x29, 0x08, 0xbe, 0xd3, 0xe8, 0x6c, 0x3d, 
	0x86, 0x82, 0xbe, 0xbd, 0x89, 0x03, 0xe1, 0xbd, 0xdc, 0x53, 0x59, 0x3e, 
	0x9f, 0x66, 0x3e, 0xbd, 0x72, 0x44, 0x57, 0x3e, 0x30, 0x76, 0xd2, 0x3a, 
	0xee, 0x24, 0x8a, 0x3d, 0x89, 0xd1, 0x60, 0x3d, 0xcf, 0x96, 0x3e, 0x3e, 
	0x2a, 0xd4, 0x34, 0x3c, 0x6a, 0x69, 0x75, 0xbd, 0xfa, 0x5d, 0x61, 0xbe, 
	0xf4, 0xb7, 0x0e, 0x3e, 0x0c, 0x02, 0x53, 0xbd, 0x08, 0x95, 0x0c, 0xbe, 
	0xe5, 0x34, 0x75, 0xbd, 0xcb, 0xd8, 0x1a, 0x3d, 0xdc, 0x11, 0x14, 0xbe, 
	0x47, 0xcb, 0x4f, 0xbd, 0xbb, 0x89, 0x48, 0x3d, 0xcf, 0x47, 0x78, 0x3c, 
	0x7e, 0xf3, 0x03, 0xbe, 0xd5, 0x19, 0x10, 0xbd, 0x96, 0xc4, 0x67, 0x3d, 
	0x9d, 0x94, 0x87, 0xbe, 0x6b, 0x4f, 0x74, 0x3d, 0x98, 0x05, 0x9f, 0x3d, 
	0x5d, 0xb3, 0xa2, 0xbd, 0x1f, 0x9d, 0x53, 0x3e, 0x06, 0x1f, 0x24, 0x3e, 
	0xbd, 0x4b, 0x7f, 0x3d, 0xca, 0x70, 0x80, 0x3d, 0x99, 0x88, 0xd3, 0x3d, 
	0xd6, 0xea, 0xb5, 0xbd, 0x68, 0x23, 0x34, 0xbd, 0x28, 0x68, 0x7a, 0x3b, 
	0xce, 0x99, 0x81, 0xbd, 0x75, 0x63, 0xa9, 0x3d, 0x05, 0x2c, 0xfb, 0x3d, 
	0x5c, 0x3b, 0x56, 0x3c, 0xe8, 0x1d, 0x6a, 0xbe, 0x11, 0x36, 0x75, 0xbe, 
	0x53, 0x2a, 0x5a, 0x3e, 0xe5, 0xad, 0xd0, 0x3d, 0xe3, 0x55, 0x16, 0xbe, 
	0x07, 0x47, 0x5d, 0xbd, 0xca, 0x21, 0xce, 0x3d, 0xa4, 0xe8, 0xbd, 0x3d, 
	0xc2, 0xb2, 0x46, 0x3d, 0x5d, 0x32, 0x04, 0x3e, 0xdc, 0xe5, 0xf3, 0x3d, 
	0xca, 0xe8, 0xbf, 0xbd, 0x18, 0x5e, 0x0f, 0x3d, 0x03, 0x8e, 0xa5, 0xbd, 
	0x1b, 0xdf, 0xbd, 0x3d, 0x4d, 0x38, 0x6e, 0x3c, 0x53, 0x6f, 0x43, 0xbe, 
	0x7c, 0x30, 0xc4, 0xbd, 0x56, 0x46, 0x01, 0x3c, 0xf3, 0x00, 0x6e, 0x3e, 
	0x56, 0x7d, 0xa6, 0x3c, 0x69, 0xcb, 0xd6, 0xbd, 0x89, 0x49, 0x4a, 0x3d, 
	0xe9, 0xfe, 0x52, 0xbd, 0xec, 0x49, 0x58, 0x3e, 0x81, 0x18, 0x5f, 0x3e, 
	0x8e, 0x76, 0x3a, 0x3e, 0x47, 0xeb, 0x13, 0x3e, 0xfb, 0x26, 0x40, 0x3e, 
	0xea, 0x0a, 0xc3, 0x3d, 0x61, 0x0c, 0xce, 0xbd, 0x51, 0x56, 0x02, 0x3e, 
	0x26, 0x7f, 0x60, 0xbe, 0x0e, 0x63, 0x8d, 0x3d, 0x5a, 0x52, 0xa3, 0xbc, 
	0xf9, 0x66, 0xf6, 0xbd, 0xba, 0xd3, 0x54, 0x3e, 0xbb, 0x9d, 0xb9, 0x3d, 
	0x78, 0x2a, 0x43, 0xbd, 0x20, 0xa3, 0xfb, 0x3d, 0xca, 0x9d, 0x07, 0xbe, 
	0x75, 0x67, 0x71, 0xbd, 0x8e, 0x04, 0x1c, 0xbd, 0xfa, 0xf3, 0x42, 0x3e, 
	0x2a, 0x5c, 0x9c, 0x3d, 0x5b, 0x61, 0x4c, 0x3b, 0x6c, 0xef, 0xf6, 0xbc, 
	0x3e, 0x68, 0xe3, 0xbc, 0x9b, 0x50, 0xc3, 0xbc, 0x79, 0x8e, 0x09, 0x3e, 
	0x91, 0x8d, 0x90, 0x3d, 0x51, 0x3b, 0xfe, 0x3d, 0x90, 0x0b, 0x24, 0x3e, 
	0x0e, 0xb0, 0x0f, 0xbc, 0x7e, 0x00, 0x7e, 0xbe, 0x12, 0xb3, 0xdc, 0x3d, 
	0xe6, 0x6d, 0x26, 0x3d, 0xff, 0x4e, 0x2f, 0xbe, 0xc5, 0xe3, 0x4e, 0x3e, 
	0x5a, 0x2a, 0xb9, 0xbc, 0x27, 0xb4, 0xd2, 0xbd, 0x79, 0xbd, 0x3f, 0xbd, 
	0x98, 0xd6, 0x1d, 0xbc, 0xba, 0x81, 0x07, 0x3a, 0xff, 0xdf, 0x12, 0xbe, 
	0xca, 0x1c, 0x0a, 0xbe, 0x3f, 0x13, 0x1b, 0x3e, 0x22, 0xe1, 0x24, 0xbe, 
	0x6f, 0xe6, 0x9e, 0x3d, 0xa3, 0xf9, 0xf7, 0xbd, 0xf0, 0xf7, 0x5a, 0x3e, 
	0x5a, 0xfa, 0x08, 0x3d, 0x8b, 0xcc, 0xb6, 0xbd, 0x94, 0x56, 0x1a, 0xbd, 
	0x99, 0x6e, 0x3b, 0x3e, 0xdc, 0x5e, 0x34, 0x3e, 0x45, 0x89, 0x3c, 0x3d, 
	0x22, 0xba, 0xcb, 0xbd, 0x17, 0x3c, 0xd0, 0x3c, 0xa6, 0xc2, 0x82, 0xbd, 
	0x84, 0xb5, 0xf3, 0x3d, 0xaa, 0xee, 0x82, 0xbe, 0x93, 0x5d, 0x08, 0xbe, 
	0x89, 0x49, 0x85, 0xbd, 0x5e, 0xe2, 0xfb, 0xbd, 0x0b, 0x95, 0x6b, 0x3e, 
	0x1a, 0x38, 0x8a, 0x3e, 0xbc, 0x1c, 0x88, 0x3d, 0x23, 0x58, 0x32, 0xbd, 
	0xab, 0x46, 0x31, 0x3e, 0x67, 0x7e, 0xab, 0x3d, 0x15, 0xe4, 0x6b, 0xbd, 
	0x82, 0x30, 0x53, 0x3d, 0x94, 0xaa, 0x81, 0x3c, 0x10, 0x87, 0x67, 0x3e, 
	0x68, 0x45, 0x27, 0xbe, 0x92, 0x63, 0xd8, 0x3c, 0xea, 0x92, 0x7f, 0xbd, 
	0xdd, 0xa9, 0x08, 0x3e, 0x6d, 0x6c, 0x10, 0x3e, 0x86, 0x62, 0x39, 0xbe, 
	0x85, 0x10, 0xd6, 0xbc, 0xcc, 0x4c, 0xa1, 0xbc, 0xe9, 0x8f, 0xc4, 0x3d, 
	0xb0, 0x59, 0x60, 0xbe, 0x6b, 0xbc, 0x32, 0x3d, 0x01, 0x9a, 0xb2, 0xbe, 
	0xb7, 0x99, 0x80, 0xbd, 0xb8, 0x18, 0x52, 0x3e, 0x6b, 0xea, 0x6e, 0xbe, 
	0x03, 0x02, 0xb6, 0x3d, 0xe8, 0x3e, 0x40, 0x3c, 0x00, 0x6c, 0xa5, 0xbd, 
	0x91, 0x18, 0x80, 0xbe, 0xc0, 0x21, 0xd2, 0x3c, 0xc4, 0x94, 0x11, 0x3e, 
	0x6e, 0x8b, 0x45, 0xbb, 0x8d, 0x62, 0x0d, 0x3e, 0x0e, 0x99, 0x05, 0x3e, 
	0xe3, 0xae, 0x65, 0xbe, 0x84, 0x80, 0x32, 0xbe, 0xd1, 0xa4, 0x49, 0x3e, 
	0x72, 0xc6, 0x08, 0x3e, 0xab, 0xe2, 0x10, 0x3e, 0x42, 0xe5, 0x38, 0x3e, 
	0x61, 0xec, 0x95, 0x3d, 0x96, 0x8c, 0xfe, 0xbd, 0xd1, 0xc4, 0x49, 0x3d, 
	0x47, 0x1c, 0x18, 0xbe, 0xa7, 0xf7, 0xcd, 0xbd, 0xd7, 0x29, 0x30, 0x3e, 
	0xa8, 0xda, 0x1b, 0xbe, 0x95, 0xb0, 0x95, 0xbb, 0x53, 0x57, 0x00, 0x3e, 
	0x3d, 0x14, 0x0a, 0xbe, 0xd7, 0xd1, 0x2a, 0x3e, 0x4d, 0x21, 0x89, 0x3d, 
	0xa4, 0x2b, 0xc2, 0x3d, 0x14, 0x3c, 0xe0, 0xbc, 0x64, 0x04, 0x0a, 0x3e, 
	0x9a, 0x92, 0x26, 0xbd, 0x81, 0x92, 0x59, 0xbd, 0xdd, 0x41, 0xc0, 0xbd, 
	0x81, 0x1f, 0x26, 0x3e, 0x7a, 0x06, 0xad, 0x3d, 0x47, 0xf7, 0xe8, 0xbd, 
	0x40, 0x8f, 0x8b, 0x3d, 0xdc, 0x55, 0x45, 0x3d, 0xe3, 0x13, 0x3e, 0xbe, 
	0xf9, 0xd3, 0x45, 0xbb, 0xc8, 0x15, 0xe1, 0xbd, 0x06, 0x97, 0x86, 0x3e, 
	0x02, 0xd3, 0xe0, 0x3d, 0x26, 0xed, 0x03, 0x3e, 0x9c, 0xd6, 0x1c, 0xbe, 
	0xc6, 0x57, 0x32, 0xbd, 0x8b, 0x94, 0x36, 0xbd, 0xbe, 0x8c, 0xa6, 0xbd, 
	0x58, 0x97, 0xc7, 0x3d, 0x6a, 0x0a, 0x1a, 0xbe, 0x8b, 0xf0, 0xa2, 0xbd, 
	0x0f, 0x7e, 0x2e, 0xbd, 0xe1, 0x89, 0x34, 0x3e, 0xdc, 0x10, 0x80, 0xbe, 
	0x8e, 0x4d, 0x41, 0x3d, 0xde, 0x92, 0x34, 0xbe, 0x96, 0x49, 0x9f, 0xbd, 
	0xe9, 0x9a, 0x3c, 0xbd, 0xfc, 0xd1, 0x82, 0xbc, 0x71, 0x48, 0x6a, 0xbc, 
	0x19, 0x91, 0x53, 0x3d, 0xc6, 0x58, 0x40, 0x3e, 0x6a, 0xfd, 0xff, 0xff, 
	0x04, 0x00, 0x00, 0x00, 0x08, 0x00, 0x00, 0x00, 0xff, 0xff, 0xff, 0xff, 
	0x60, 0x00, 0x00, 0x00, 0x7e, 0xfd, 0xff, 0xff, 0x04, 0x00, 0x00, 0x00, 
	0x14, 0x00, 0x00, 0x00, 0xf4, 0xe8, 0x82, 0x3f, 0x91, 0x06, 0xdf, 0xbe, 
	0x9b, 0x58, 0xc9, 0xbe, 0xdc, 0xd8, 0x8c, 0xbd, 0x68, 0xc6, 0xe7, 0xbe, 
	0x9e, 0xfd, 0xff, 0xff, 0x04, 0x00, 0x00, 0x00, 0x80, 0x01, 0x00, 0x00, 
	0x0f, 0xc8, 0x5e, 0x3d, 0xae, 0xf4, 0x2d, 0xbe, 0x8a, 0x14, 0x24, 0xbd, 
	0x99, 0x89, 0x06, 0xbe, 0xad, 0x8b, 0x11, 0xbe, 0x3c, 0x76, 0xdf, 0x3c, 
	0x1d, 0x53, 0xac, 0xbb, 0x63, 0x61, 0x01, 0x3e, 0x42, 0x59, 0xa3, 0xbe, 
	0x74, 0x43, 0x22, 0x3e, 0x52, 0x76, 0xab, 0x3b, 0xd8, 0xd4, 0x62, 0xbe, 
	0x85, 0x59, 0x90, 0x3d, 0x06, 0x9f, 0xf5, 0xbd, 0x63, 0x95, 0xc8, 0xbd, 
	0x26, 0x43, 0x93, 0xbe, 0x6f, 0x47, 0x0b, 0x3d, 0x3c, 0x7b, 0x70, 0xbe, 
	0x1d, 0xe7, 0x8f, 0x3b, 0x85, 0x3d, 0x49, 0x3b, 0x52, 0x04, 0x31, 0x3d, 
	0xfc, 0xfe, 0x0e, 0xbe, 0x7b, 0xe5, 0x8d, 0xbd, 0xcb, 0x04, 0x61, 0xbe, 
	0x8a, 0x8a, 0x04, 0xbe, 0x89, 0x44, 0x0a, 0xbd, 0xd8, 0xec, 0x6b, 0x3d, 
	0x46, 0x88, 0x78, 0x3d, 0xd7, 0x45, 0x7a, 0x3c, 0xef, 0x1d, 0xa9, 0xbd, 
	0xa0, 0xe1, 0xd2, 0xbd, 0x12, 0xe1, 0xdb, 0x3c, 0x28, 0x48, 0x81, 0x3c, 
	0xab, 0xa3, 0xad, 0x3c, 0xdb, 0x42, 0x9e, 0xbd, 0x21, 0x54, 0xf2, 0x3c, 
	0x96, 0xff, 0x2d, 0x3c, 0x49, 0x1d, 0x8a, 0x3c, 0x13, 0x57, 0xea, 0xbd, 
	0x11, 0xdc, 0x43, 0xbd, 0xe3, 0x59, 0x60, 0x3d, 0xc3, 0xed, 0x5d, 0x3d, 
	0x13, 0x8f, 0x24, 0xbe, 0xa3, 0xa6, 0x81, 0xbe, 0x78, 0x0b, 0x01, 0xbd, 
	0x9b, 0x08, 0x5e, 0xbd, 0x7d, 0x6b, 0xb7, 0x3c, 0xe7, 0x40, 0x19, 0xbd, 
	0x88, 0x5d, 0x37, 0xbe, 0x0b, 0xe1, 0x85, 0xbd, 0xe1, 0x39, 0xb5, 0x3d, 
	0xec, 0x9d, 0x2e, 0xbd, 0x88, 0x55, 0x59, 0x3c, 0xfd, 0x49, 0x3c, 0x3d, 
	0xeb, 0xb2, 0x9d, 0x3c, 0x34, 0x6a, 0xb4, 0x3d, 0x5b, 0x8a, 0xb8, 0xbc, 
	0x8c, 0x1a, 0xe1, 0x3d, 0x7d, 0x52, 0x6e, 0x3c, 0xce, 0xec, 0x06, 0xbe, 
	0x1e, 0x16, 0xba, 0xbc, 0x5e, 0xab, 0x9d, 0x3c, 0x2c, 0xe8, 0x9d, 0xbd, 
	0xe8, 0x9d, 0x10, 0xbc, 0xf7, 0x51, 0xd1, 0x3c, 0x57, 0xef, 0xe6, 0x3b, 
	0x30, 0x08, 0x42, 0x3d, 0x4f, 0xbc, 0x34, 0xbe, 0x35, 0x8c, 0xd0, 0xbd, 
	0x20, 0x62, 0x3f, 0xbe, 0xed, 0x6e, 0xa6, 0xbd, 0xae, 0xb3, 0xb8, 0x3b, 
	0x3a, 0xc9, 0xf4, 0xbd, 0xc7, 0xef, 0x82, 0xbd, 0xd5, 0xdc, 0x08, 0x3c, 
	0xf7, 0xd0, 0x30, 0x3d, 0x6e, 0x55, 0x59, 0x3c, 0x28, 0x6e, 0x4f, 0xbd, 
	0x12, 0x95, 0xc5, 0xbd, 0x85, 0x8a, 0x9f, 0xbd, 0x98, 0x5b, 0xb7, 0x3d, 
	0xfe, 0xfa, 0x5d, 0xbd, 0x2d, 0x39, 0x89, 0x3c, 0x1f, 0x63, 0x42, 0x3c, 
	0x50, 0x1b, 0x87, 0xbc, 0xfe, 0xab, 0xab, 0xbd, 0x8c, 0xf5, 0xb2, 0x3c, 
	0x07, 0xd1, 0x2b, 0xbe, 0x38, 0x5e, 0x64, 0xbe, 0x42, 0x90, 0x58, 0xbb, 
	0xe2, 0x85, 0x20, 0xbe, 0x6e, 0x82, 0xe2, 0x39, 0xcb, 0x26, 0x5a, 0xbd, 
	0x65, 0x33, 0xd4, 0xba, 0x29, 0xe8, 0x17, 0x3e, 0x1f, 0x5e, 0x99, 0xbb, 
	0x2a, 0xff, 0xff, 0xff, 0x04, 0x00, 0x00, 0x00, 0x40, 0x00, 0x00, 0x00, 
	0x1a, 0xb4, 0x25, 0x3f, 0x03, 0x5a, 0x00, 0x3f, 0x2d, 0x78, 0x5c, 0xbc, 
	0x89, 0x57, 0xf7, 0x3d, 0x6a, 0x12, 0xa4, 0x3d, 0xf0, 0x25, 0x05, 0x3f, 
	0x7d, 0x84, 0x94, 0x3c, 0x00, 0x43, 0x21, 0x3f, 0x66, 0x6c, 0x22, 0x3d, 
	0x60, 0x83, 0xe6, 0xbe, 0xc3, 0x1e, 0x9c, 0xbe, 0x8c, 0xeb, 0x8e, 0x3f, 
	0x1c, 0x93, 0xee, 0x3e, 0xc7, 0xbd, 0xb0, 0xbe, 0x40, 0xa7, 0x53, 0x3e, 
	0x93, 0x1a, 0xc2, 0xbe, 0xb0, 0xf9, 0xff, 0xff, 0xb4, 0xf9, 0xff, 0xff, 
	0x0f, 0x00, 0x00, 0x00, 0x4d, 0x4c, 0x49, 0x52, 0x20, 0x43, 0x6f, 0x6e, 
	0x76, 0x65, 0x72, 0x74, 0x65, 0x64, 0x2e, 0x00, 0x01, 0x00, 0x00, 0x00, 
	0x14, 0x00, 0x00, 0x00, 0x00, 0x00, 0x0e, 0x00, 0x18, 0x00, 0x14, 0x00, 
	0x10, 0x00, 0x0c, 0x00, 0x08, 0x00, 0x04, 0x00, 0x0e, 0x00, 0x00, 0x00, 
	0x14, 0x00, 0x00, 0x00, 0x1c, 0x00, 0x00, 0x00, 0x88, 0x01, 0x00, 0x00, 
	0x8c, 0x01, 0x00, 0x00, 0x90, 0x01, 0x00, 0x00, 0x04, 0x00, 0x00, 0x00, 
	0x6d, 0x61, 0x69, 0x6e, 0x00, 0x00, 0x00, 0x00, 0x05, 0x00, 0x00, 0x00, 
	0x20, 0x01, 0x00, 0x00, 0xbc, 0x00, 0x00, 0x00, 0x84, 0x00, 0x00, 0x00, 
	0x40, 0x00, 0x00, 0x00, 0x04, 0x00, 0x00, 0x00, 0x62, 0xff, 0xff, 0xff, 
	0x1c, 0x00, 0x00, 0x00, 0x00, 0x00, 0x00, 0x09, 0x1c, 0x00, 0x00, 0x00, 
	0x20, 0x00, 0x00, 0x00, 0x04, 0x00, 0x00, 0x00, 0x00, 0x00, 0x06, 0x00, 
	0x08, 0x00, 0x04, 0x00, 0x06, 0x00, 0x00, 0x00, 0x00, 0x00, 0x80, 0x3f, 
	0x01, 0x00, 0x00, 0x00, 0x0a, 0x00, 0x00, 0x00, 0x01, 0x00, 0x00, 0x00, 
	0x09, 0x00, 0x00, 0x00, 0x9a, 0xff, 0xff, 0xff, 0x14, 0x00, 0x00, 0x00, 
	0x00, 0x00, 0x00, 0x08, 0x10, 0x00, 0x00, 0x00, 0x14, 0x00, 0x00, 0x00, 
	0x03, 0x00, 0x00, 0x00, 0x70, 0xfa, 0xff, 0xff, 0x01, 0x00, 0x00, 0x00, 
	0x09, 0x00, 0x00, 0x00, 0x03, 0x00, 0x00, 0x00, 0x08, 0x00, 0x00, 0x00, 
	0x05, 0x00, 0x00, 0x00, 0x03, 0x00, 0x00, 0x00, 0x00, 0x00, 0x0a, 0x00, 
	0x10, 0x00, 0x0c, 0x00, 0x08, 0x00, 0x04, 0x00, 0x0a, 0x00, 0x00, 0x00, 
	0x0c, 0x00, 0x00, 0x00, 0x10, 0x00, 0x00, 0x00, 0x02, 0x00, 0x00, 0x00, 
	0x01, 0x00, 0x00, 0x00, 0x08, 0x00, 0x00, 0x00, 0x02, 0x00, 0x00, 0x00, 
	0x07, 0x00, 0x00, 0x00, 0x04, 0x00, 0x00, 0x00, 0x00, 0x00, 0x0e, 0x00, 
	0x1a, 0x00, 0x14, 0x00, 0x10, 0x00, 0x0c, 0x00, 0x0b, 0x00, 0x04, 0x00, 
	0x0e, 0x00, 0x00, 0x00, 0x24, 0x00, 0x00, 0x00, 0x00, 0x00, 0x00, 0x05, 
	0x34, 0x00, 0x00, 0x00, 0x38, 0x00, 0x00, 0x00, 0x01, 0x00, 0x00, 0x00, 
	0x00, 0x00, 0x0e, 0x00, 0x18, 0x00, 0x17, 0x00, 0x10, 0x00, 0x0c, 0x00, 
	0x08, 0x00, 0x04, 0x00, 0x0e, 0x00, 0x00, 0x00, 0x10, 0x00, 0x00, 0x00, 
	0x01, 0x00, 0x00, 0x00, 0x10, 0x00, 0x00, 0x00, 0x01, 0x00, 0x00, 0x00, 
	0x00, 0x00, 0x00, 0x01, 0x01, 0x00, 0x00, 0x00, 0x07, 0x00, 0x00, 0x00, 
	0x01, 0x00, 0x00, 0x00, 0x06, 0x00, 0x00, 0x00, 0x00, 0x00, 0x0e, 0x00, 
	0x14, 0x00, 0x00, 0x00, 0x10, 0x00, 0x0c, 0x00, 0x0b, 0x00, 0x04, 0x00, 
	0x0e, 0x00, 0x00, 0x00, 0x1c, 0x00, 0x00, 0x00, 0x00, 0x00, 0x00, 0x01, 
	0x28, 0x00, 0x00, 0x00, 0x2c, 0x00, 0x00, 0x00, 0x0c, 0x00, 0x14, 0x00, 
	0x13, 0x00, 0x0c, 0x00, 0x08, 0x00, 0x07, 0x00, 0x0c, 0x00, 0x00, 0x00, 
	0x00, 0x00, 0x00, 0x01, 0x01, 0x00, 0x00, 0x00, 0x01, 0x00, 0x00, 0x00, 
	0x00, 0x00, 0x00, 0x01, 0x01, 0x00, 0x00, 0x00, 0x06, 0x00, 0x00, 0x00, 
	0x03, 0x00, 0x00, 0x00, 0x00, 0x00, 0x00, 0x00, 0x02, 0x00, 0x00, 0x00, 
	0x01, 0x00, 0x00, 0x00, 0x01, 0x00, 0x00, 0x00, 0x0a, 0x00, 0x00, 0x00, 
	0x01, 0x00, 0x00, 0x00, 0x00, 0x00, 0x00, 0x00, 0x0b, 0x00, 0x00, 0x00, 
	0x44, 0x04, 0x00, 0x00, 0xd4, 0x03, 0x00, 0x00, 0x68, 0x03, 0x00, 0x00, 
	0x14, 0x03, 0x00, 0x00, 0xc8, 0x02, 0x00, 0x00, 0x68, 0x02, 0x00, 0x00, 
	0xa4, 0x01, 0x00, 0x00, 0x30, 0x01, 0x00, 0x00, 0xd4, 0x00, 0x00, 0x00, 
	0x60, 0x00, 0x00, 0x00, 0x04, 0x00, 0x00, 0x00, 0xfe, 0xfb, 0xff, 0xff, 
	0x00, 0x00, 0x00, 0x01, 0x14, 0x00, 0x00, 0x00, 0x1c, 0x00, 0x00, 0x00, 
	0x1c, 0x00, 0x00, 0x00, 0x0b, 0x00, 0x00, 0x00, 0x34, 0x00, 0x00, 0x00, 
	0x02, 0x00, 0x00, 0x00, 0xff, 0xff, 0xff, 0xff, 0x05, 0x00, 0x00, 0x00, 
	0xe0, 0xfb, 0xff, 0xff, 0x19, 0x00, 0x00, 0x00, 0x53, 0x74, 0x61, 0x74, 
	0x65, 0x66, 0x75, 0x6c, 0x50, 0x61, 0x72, 0x74, 0x69, 0x74, 0x69, 0x6f, 
	0x6e, 0x65, 0x64, 0x43, 0x61, 0x6c, 0x6c, 0x3a, 0x30, 0x00, 0x00, 0x00, 
	0x02, 0x00, 0x00, 0x00, 0x01, 0x00, 0x00, 0x00, 0x05, 0x00, 0x00, 0x00, 
	0x56, 0xfc, 0xff, 0xff, 0x00, 0x00, 0x00, 0x01, 0x14, 0x00, 0x00, 0x00, 
	0x1c, 0x00, 0x00, 0x00, 0x1c, 0x00, 0x00, 0x00, 0x0a, 0x00, 0x00, 0x00, 
	0x4c, 0x00, 0x00, 0x00, 0x02, 0x00, 0x00, 0x00, 0xff, 0xff, 0xff, 0xff, 
	0x05, 0x00, 0x00, 0x00, 0x38, 0xfc, 0xff, 0xff, 0x30, 0x00, 0x00, 0x00, 
	0x73, 0x65, 0x71, 0x75, 0x65, 0x6e, 0x74, 0x69, 0x61, 0x6c, 0x2f, 0x64, 
	0x65, 0x6e, 0x73, 0x65, 0x2f, 0x4d, 0x61, 0x74, 0x4d, 0x75, 0x6c, 0x3b, 
	0x73, 0x65, 0x71, 0x75, 0x65, 0x6e, 0x74, 0x69, 0x61, 0x6c, 0x2f, 0x64, 
	0x65, 0x6e, 0x73, 0x65, 0x2f, 0x42, 0x69, 0x61, 0x73, 0x41, 0x64, 0x64, 
	0x00, 0x00, 0x00, 0x00, 0x02, 0x00, 0x00, 0x00, 0x01, 0x00, 0x00, 0x00, 
	0x05, 0x00, 0x00, 0x00, 0xc6, 0xfc, 0xff, 0xff, 0x00, 0x00, 0x00, 0x01, 
	0x14, 0x00, 0x00, 0x00, 0x1c, 0x00, 0x00, 0x00, 0x1c, 0x00, 0x00, 0x00, 
	0x09, 0x00, 0x00, 0x00, 0x34, 0x00, 0x00, 0x00, 0x02, 0x00, 0x00, 0x00, 
	0xff, 0xff, 0xff, 0xff, 0x60, 0x00, 0x00, 0x00, 0xa8, 0xfc, 0xff, 0xff, 
	0x1a, 0x00, 0x00, 0x00, 0x73, 0x65, 0x71, 0x75, 0x65, 0x6e, 0x74, 0x69, 
	0x61, 0x6c, 0x2f, 0x66, 0x6c, 0x61, 0x74, 0x74, 0x65, 0x6e, 0x2f, 0x52, 
	0x65, 0x73, 0x68, 0x61, 0x70, 0x65, 0x00, 0x00, 0x02, 0x00, 0x00, 0x00, 
	0x01, 0x00, 0x00, 0x00, 0x60, 0x00, 0x00, 0x00, 0x1e, 0xfd, 0xff, 0xff, 
	0x00, 0x00, 0x00, 0x01, 0x14, 0x00, 0x00, 0x00, 0x24, 0x00, 0x00, 0x00, 
	0x24, 0x00, 0x00, 0x00, 0x08, 0x00, 0x00, 0x00, 0x44, 0x00, 0x00, 0x00, 
	0x04, 0x00, 0x00, 0x00, 0xff, 0xff, 0xff, 0xff, 0x06, 0x00, 0x00, 0x00, 
	0x01, 0x00, 0x00, 0x00, 0x10, 0x00, 0x00, 0x00, 0x08, 0xfd, 0xff, 0xff, 
	0x20, 0x00, 0x00, 0x00, 0x73, 0x65, 0x71, 0x75, 0x65, 0x6e, 0x74, 0x69, 
	0x61, 0x6c, 0x2f, 0x6d, 0x61, 0x78, 0x5f, 0x70, 0x6f, 0x6f, 0x6c, 0x69, 
	0x6e, 0x67, 0x32, 0x64, 0x2f, 0x4d, 0x61, 0x78, 0x50, 0x6f, 0x6f, 0x6c, 
	0x00, 0x00, 0x00, 0x00, 0x04, 0x00, 0x00, 0x00, 0x01, 0x00, 0x00, 0x00, 
	0x06, 0x00, 0x00, 0x00, 0x01, 0x00, 0x00, 0x00, 0x10, 0x00, 0x00, 0x00, 
	0x8e, 0xfd, 0xff, 0xff, 0x00, 0x00, 0x00, 0x01, 0x14, 0x00, 0x00, 0x00, 
	0x24, 0x00, 0x00, 0x00, 0x24, 0x00, 0x00, 0x00, 0x07, 0x00, 0x00, 0x00, 
	0x94, 0x00, 0x00, 0x00, 0x04, 0x00, 0x00, 0x00, 0xff, 0xff, 0xff, 0xff, 
	0x62, 0x00, 0x00, 0x00, 0x01, 0x00, 0x00, 0x00, 0x10, 0x00, 0x00, 0x00, 
	0x78, 0xfd, 0xff, 0xff, 0x72, 0x00, 0x00, 0x00, 0x73, 0x65, 0x71, 0x75, 
	0x65, 0x6e, 0x74, 0x69, 0x61, 0x6c, 0x2f, 0x63, 0x6f, 0x6e, 0x76, 0x32, 
	0x64, 0x2f, 0x52, 0x65, 0x6c, 0x75, 0x3b, 0x73, 0x65, 0x71, 0x75, 0x65, 
	0x6e, 0x74, 0x69, 0x61, 0x6c, 0x2f, 0x63, 0x6f, 0x6e, 0x76, 0x32, 0x64, 
	0x2f, 0x42, 0x69, 0x61, 0x73, 0x41, 0x64, 0x64, 0x3b, 0x73, 0x65, 0x71, 
	0x75, 0x65, 0x6e, 0x74, 0x69, 0x61, 0x6c, 0x2f, 0x63, 0x6f, 0x6e, 0x76, 
	0x32, 0x64, 0x2f, 0x43, 0x6f, 0x6e, 0x76, 0x32, 0x44, 0x3b, 0x73, 0x65, 
	0x71, 0x75, 0x65, 0x6e, 0x74, 0x69, 0x61, 0x6c, 0x2f, 0x63, 0x6f, 0x6e, 
	0x76, 0x32, 0x64, 0x2f, 0x42, 0x69, 0x61, 0x73, 0x41, 0x64, 0x64, 0x2f, 
	0x52, 0x65, 0x61, 0x64, 0x56, 0x61, 0x72, 0x69, 0x61, 0x62, 0x6c, 0x65, 
	0x4f, 0x70, 0x00, 0x00, 0x04, 0x00, 0x00, 0x00, 0x01, 0x00, 0x00, 0x00, 
	0x62, 0x00, 0x00, 0x00, 0x01, 0x00, 0x00, 0x00, 0x10, 0x00, 0x00, 0x00, 
	0xba, 0xfe, 0xff, 0xff, 0x00, 0x00, 0x00, 0x01, 0x10, 0x00, 0x00, 0x00, 
	0x10, 0x00, 0x00, 0x00, 0x06, 0x00, 0x00, 0x00, 0x24, 0x00, 0x00, 0x00, 
	0x20, 0xfe, 0xff, 0xff, 0x17, 0x00, 0x00, 0x00, 0x73, 0x65, 0x71, 0x75, 
	0x65, 0x6e, 0x74, 0x69, 0x61, 0x6c, 0x2f, 0x64, 0x65, 0x6e, 0x73, 0x65, 
	0x2f, 0x4d, 0x61, 0x74, 0x4d, 0x75, 0x6c, 0x00, 0x02, 0x00, 0x00, 0x00, 
	0x05, 0x00, 0x00, 0x00, 0x60, 0x00, 0x00, 0x00, 0x00, 0x00, 0x16, 0x00, 
	0x1c, 0x00, 0x18, 0x00, 0x17, 0x00, 0x10, 0x00, 0x0c, 0x00, 0x08, 0x00, 
	0x00, 0x00, 0x00, 0x00, 0x00, 0x00, 0x07, 0x00, 0x16, 0x00, 0x00, 0x00, 
	0x00, 0x00, 0x00, 0x01, 0x14, 0x00, 0x00, 0x00, 0x14, 0x00, 0x00, 0x00, 
	0x05, 0x00, 0x00, 0x00, 0x00, 0x00, 0x00, 0x02, 0x28, 0x00, 0x00, 0x00, 
	0x80, 0xfe, 0xff, 0xff, 0x18, 0x00, 0x00, 0x00, 0x73, 0x65, 0x71, 0x75, 
	0x65, 0x6e, 0x74, 0x69, 0x61, 0x6c, 0x2f, 0x66, 0x6c, 0x61, 0x74, 0x74, 
	0x65, 0x6e, 0x2f, 0x43, 0x6f, 0x6e, 0x73, 0x74, 0x00, 0x00, 0x00, 0x00, 
	0x01, 0x00, 0x00, 0x00, 0x02, 0x00, 0x00, 0x00, 0x5e, 0xff, 0xff, 0xff, 
	0x00, 0x00, 0x00, 0x01, 0x10, 0x00, 0x00, 0x00, 0x10, 0x00, 0x00, 0x00, 
	0x04, 0x00, 0x00, 0x00, 0x34, 0x00, 0x00, 0x00, 0xc4, 0xfe, 0xff, 0xff, 
	0x27, 0x00, 0x00, 0x00, 0x73, 0x65, 0x71, 0x75, 0x65, 0x6e, 0x74, 0x69, 
	0x61, 0x6c, 0x2f, 0x64, 0x65, 0x6e, 0x73, 0x65, 0x2f, 0x42, 0x69, 0x61, 
	0x73, 0x41, 0x64, 0x64, 0x2f, 0x52, 0x65, 0x61, 0x64, 0x56, 0x61, 0x72, 
	0x69, 0x61, 0x62, 0x6c, 0x65, 0x4f, 0x70, 0x00, 0x01, 0x00, 0x00, 0x00, 
	0x05, 0x00, 0x00, 0x00, 0xae, 0xff, 0xff, 0xff, 0x00, 0x00, 0x00, 0x01, 
	0x10, 0x00, 0x00, 0x00, 0x10, 0x00, 0x00, 0x00, 0x03, 0x00, 0x00, 0x00, 
	0x28, 0x00, 0x00, 0x00, 0x14, 0xff, 0xff, 0xff, 0x18, 0x00, 0x00, 0x00, 
	0x73, 0x65, 0x71, 0x75, 0x65, 0x6e, 0x74, 0x69, 0x61, 0x6c, 0x2f, 0x63, 
	0x6f, 0x6e, 0x76, 0x32, 0x64, 0x2f, 0x43, 0x6f, 0x6e, 0x76, 0x32, 0x44, 
	0x00, 0x00, 0x00, 0x00, 0x04, 0x00, 0x00, 0x00, 0x10, 0x00, 0x00, 0x00, 
	0x03, 0x00, 0x00, 0x00, 0x02, 0x00, 0x00, 0x00, 0x01, 0x00, 0x00, 0x00, 
	0x00, 0x00, 0x16, 0x00, 0x18, 0x00, 0x14, 0x00, 0x00, 0x00, 0x10, 0x00, 
	0x0c, 0x00, 0x08, 0x00, 0x00, 0x00, 0x00, 0x00, 0x00, 0x00, 0x07, 0x00, 
	0x16, 0x00, 0x00, 0x00, 0x00, 0x00, 0x00, 0x01, 0x10, 0x00, 0x00, 0x00, 
	0x10, 0x00, 0x00, 0x00, 0x02, 0x00, 0x00, 0x00, 0x38, 0x00, 0x00, 0x00, 
	0x7c, 0xff, 0xff, 0xff, 0x28, 0x00, 0x00, 0x00, 0x73, 0x65, 0x71, 0x75, 
	0x65, 0x6e, 0x74, 0x69, 0x61, 0x6c, 0x2f, 0x63, 0x6f, 0x6e, 0x76, 0x32, 
	0x64, 0x2f, 0x42, 0x69, 0x61, 0x73, 0x41, 0x64, 0x64, 0x2f, 0x52, 0x65, 
	0x61, 0x64, 0x56, 0x61, 0x72, 0x69, 0x61, 0x62, 0x6c, 0x65, 0x4f, 0x70, 
	0x00, 0x00, 0x00, 0x00, 0x01, 0x00, 0x00, 0x00, 0x10, 0x00, 0x00, 0x00, 
	0x00, 0x00, 0x16, 0x00, 0x1c, 0x00, 0x18, 0x00, 0x00, 0x00, 0x14, 0x00, 
	0x10, 0x00, 0x0c, 0x00, 0x00, 0x00, 0x00, 0x00, 0x08, 0x00, 0x07, 0x00, 
	0x16, 0x00, 0x00, 0x00, 0x00, 0x00, 0x00, 0x01, 0x14, 0x00, 0x00, 0x00, 
	0x28, 0x00, 0x00, 0x00, 0x28, 0x00, 0x00, 0x00, 0x01, 0x00, 0x00, 0x00, 
	0x40, 0x00, 0x00, 0x00, 0x04, 0x00, 0x00, 0x00, 0xff, 0xff, 0xff, 0xff, 
	0x64, 0x00, 0x00, 0x00, 0x02, 0x00, 0x00, 0x00, 0x01, 0x00, 0x00, 0x00, 
	0x04, 0x00, 0x04, 0x00, 0x04, 0x00, 0x00, 0x00, 0x19, 0x00, 0x00, 0x00, 
	0x73, 0x65, 0x72, 0x76, 0x69, 0x6e, 0x67, 0x5f, 0x64, 0x65, 0x66, 0x61, 
	0x75, 0x6c, 0x74, 0x5f, 0x69, 0x6e, 0x70, 0x75, 0x74, 0x5f, 0x31, 0x3a, 
	0x30, 0x00, 0x00, 0x00, 0x04, 0x00, 0x00, 0x00, 0x01, 0x00, 0x00, 0x00, 
	0x64, 0x00, 0x00, 0x00, 0x02, 0x00, 0x00, 0x00, 0x01, 0x00, 0x00, 0x00, 
	0x05, 0x00, 0x00, 0x00, 0x50, 0x00, 0x00, 0x00, 0x34, 0x00, 0x00, 0x00, 
	0x24, 0x00, 0x00, 0x00, 0x14, 0x00, 0x00, 0x00, 0x04, 0x00, 0x00, 0x00, 
	0xd0, 0xff, 0xff, 0xff, 0x19, 0x00, 0x00, 0x00, 0x00, 0x00, 0x00, 0x19, 
	0xdc, 0xff, 0xff, 0xff, 0x09, 0x00, 0x00, 0x00, 0x00, 0x00, 0x00, 0x09, 
	0xe8, 0xff, 0xff, 0xff, 0x16, 0x00, 0x00, 0x00, 0x00, 0x00, 0x00, 0x16, 
	0xf4, 0xff, 0xff, 0xff, 0x11, 0x00, 0x00, 0x00, 0x00, 0x00, 0x00, 0x11, 
	0x0c, 0x00, 0x0c, 0x00, 0x0b, 0x00, 0x00, 0x00, 0x00, 0x00, 0x04, 0x00, 
	0x0c, 0x00, 0x00, 0x00, 0x03, 0x00, 0x00, 0x00, 0x00, 0x00, 0x00, 0x03
};
const int model_data_len = 4692;